#version: bpe-stdlib-1
i n
Ġ o
Ġ a
e r
Ġ t
h e
Ġo f
o n
in g
a t
e s
e n
e d
a n
a l
Ġ s
i t
a r
i s
o r
Ġo r
Ġt he
i c
Ġ p
Ġ c
Ġ b
Ġ w
Ġ A
Ġ f
r e
r o
Ġ T
u s
l e
Ġt o
Ġa n
Ġ in
i on
Ġ m
Ġ S
e l
a s
a c
i l
Ġ d
e t
u n
o m
o l
en t
Ġ O
u r
Ġa s
i d
Ġ l
Ġan d
e c
Ġ I
o s
r a
i v
Ġw h
Ġ h
o t
Ġ C
Ġ H
Ġ g
l y
u t
u l
ĠT he
es s
e .
a m
u m
a d
i g
Ġ e
n e
Ġ B
i m
an t
a b
Ġ L
Ġ P
t er
o us
at e
Ġ E
Ġ D
a in
Ġ F
Ġ N
Ġ U
Ġ n
it h
Ġ R
c e
Ġ V
Ġ G
o d
e m
Ġs t
i r
at ion
Ġ W
o w
Ġ J
Ġ M
q u
c t
s .
a v
p h
Ġ v
c h
s t
Ġf or
Ġ Y
is t
Ġ K
e e
Ġ re
Q u
Ġ Qu
er t
ĠU n
Ġ r
Ġ Z
al l
t h
Ġb e
a g
Ġw ith
ĠT o
Ġb y
i es
ĠI n
o g
i f
e ;
e ,
Ġc on
ic h
Ġt h
un d
ro m
ab le
Ġa l
es t
u p
it y
v er
u b
Ġ is
ĠS ee
s ,
Ġas ,
i p
Ġwh ich
an d
a k
as t
a p
o p
is h
in e
i b
ert ain
Ġp ro
i z
Ġwh o
t .
ĠO ne
el l
ic al
Ġe x
en d
Ġs p
Ġf rom
ig h
i al
ar t
ec t
il l
Ġp l
f f
Ġ us
u re
o c
er s
u d
iv e
ĠA n
on g
av ing
y l
s o
i a
Ġc om
Ġ qu
u c
i an
ar d
Ġ k
y .
r an
in d
ertain ing
Ġ un
Ġ (
p er
Ġbe ing
Ġs e
Ġc h
Ġ -
Ġ- -
u g
Ġ he
r y
ĠA l
at ed
o ur
a y
Ġal so
es .
Ġ X
k e
m ent
it e
ac k
ĠO f
Ġo ne
h er
Ġp ertaining
igh t
i um
Ġm an
s ;
o od
at er
or t
Ġst ate
all ed
ĠAl t.
g e
at ing
Ġa re
d er
Ġ y
p os
p l
Ġus ed
r i
p t
Ġo n
ro w
is m
as s
Ġa ct
Ġ j
o und
y ;
o ut
l ing
ed ;
am e
c l
ac t
ra ph
n ess
ing ;
i ous
e ar
ac h
Ġp art
er .
Ġp r
Ġfor m
he d
an ce
or d
en s
Ġc o
ĠE n
t r
or m
es ,
e al
al ly
ac e
Ġs h
Ġg en
Ġ it
ar y
Ġth at
ĠR e
p r
o v
ing .
ed .
Ġa t
t ain
ic k
Ġ ro
Ġf l
Ġd is
ĠH aving
Ġ le
s h
es p
Ġc alled
en ce
ro p
e v
Ġt r
Ġs ub
Ġs om
Ġl i
Ġa r
Ġ up
a il
Ġh aving
Ġa p
ow er
er v
a .
Ġo b
Ġn ot
Ġa c
ĠI t
ell ow
os t
og raph
m b
in c
e f
e as
Ġsp ec
ĠS t
ug h
os e
ol d
oc k
ion ;
en c
Ġr es
Ġqu al
ĠN ot
id e
b er
ĠC on
Ġ z
Ġ und
u ct
th er
t ed
he n
e w
a w
ĠD is
re e
ing ,
i re
ant h
us t
r ing
on e
o in
o b
at h
Ġs m
Ġa b
Ġ im
il y
Ġt w
Ġb l
ĠC h
es ;
Ġs o
Ġpl ant
Ġc ol
ĠW h
ĠH y
is s
er m
e an
c on
c o
Ġp re
Ġc l
ĠZ o
ĠS ame
ĠE x
r it
et h
ag e
Ġqual ity
Ġit s
t o
s ist
s e
o id
l i
f ul
e b
an g
Ġman n
ĠIn d
ĠI m
y ,
ul l
or e
le .
e g
e en
a ,
Ġn at
Ġan y
Ġa d
ĠO ver
ol og
le ct
ion .
er y
ak e
Ġtw o
Ġspec ies
Ġs c
Ġo ther
ĠX yl
Ġ ra
ur n
u e
ol l
o ph
le t
ar k
Ġk n
Ġgen us
Ġcom m
Ġ et
r ic
l l
el y
ar g
an c
Ġsm all
Ġo p
Ġf e
ĠK n
ul ar
ol y
f er
ad e
Ġy ellow
Ġw or
Ġpro d
Ġof f
Ġet c
Ġetc .
re at
r on
p ar
o k
m an
it t
it ion
i x
er ic
em b
c ess
Ġund er
Ġalso ,
ĠT h
ĠA c
st r
or y
le ;
l o
l ed
i ent
ers on
en ess
Ġto ,
Ġk ind
Ġin ter
Ġf our
Ġd ist
ĠT r
ĠA b
sh ip
l and
er e
c om
ar m
ad r
Ġsub st
Ġs up
Ġm in
Ġin cl
Ġh y
Ġcom p
Ġc ar
ĠO ut
ul t
ra m
in ess
ig n
emb ling
el d
Ġp er
Ġm et
Ġhe n
Ġa g
ĠP ro
Ġ ne
Ġ esp
u ff
if ic
f orm
es c
er al
er ;
ed ,
c he
av e
at ic
al e
Ġpro p
Ġin s
un t
os s
or n
iz e
ic e
i et
i at
er n
ce ,
c ur
) ,
Ġw ood
Ġst r
Ġp erson
Ġo ut
Ġf ound
Ġd o
Ġd iv
Ġcon sist
Ġc ertain
Ġap p
Ġan im
ĠF l
v en
us e
u it
ran s
r ess
om an
ly .
j ect
i le
en e
d ro
ak ing
a ir
Ġt im
Ġre l
Ġl ong
Ġcol or
Ġch ar
Ġb ut
Ġb o
ĠA m
un c
u ch
u ally
ra g
o on
i ph
g an
f t
ec k
e a
al v
al t
ac ter
a id
Ġv ar
Ġres embling
Ġre m
Ġre g
Ġin to
Ġhen ce,
Ġd e
ĠUn der
ĠAn y
row n
re w
ran ch
ra v
ot her
it ies
ir d
i er
i ate
er ous
er ,
en n
ation ;
at ter
as on
' s
Ġprod uc
Ġp ur
Ġob tain
Ġm ade
Ġg r
Ġcomm on
Ġb et
Ġb el
Ġanim al
ĠZ inc
ĠX anth
ĠW ater
ĠS p
ĠN on
ĠEn g
Ġ ir
Ġ en
y n
ugh t
t ic
ro s
r ed
on d
o ot
is e
f l
at ive
a x
Ġh is
Ġex t
Ġcon tain
Ġbet w
Ġbetw een
Ġb od
Ġac id
Ġ end
y ing
ter n
t en
st e
p ro
p le
iz ed
ies .
ical ly
ib le
i eld
i ed
et ic
ent ;
c k
am m
able ;
Ġwhich ,
Ġr ed
Ġin d
Ġchar acter
ĠQu adr
ĠP ertaining
y s
ut h
ut e
uc k
u al
pos ed
p ort
or .
o h
ity .
it ed
ion ,
in k
ig in
id d
he ad
en .
ce pt
at e.
an n
ace ous
a e
Ġt re
Ġsubst ance
Ġs k
Ġor gan
Ġli ke
Ġincl ud
Ġc ry
Ġc or
Ġal l
ĠO b
ĠG l
ĠE u
ĠD e
re ad
p e
or k
or ;
on t
i ev
et im
ation .
ar e
ar b
an k
Ġwho ,
Ġw rit
Ġw ater
Ġt rans
Ġsom etim
Ġpro cess
Ġobtain ed
Ġmann er.
Ġm ake
Ġhe ad
Ġd ra
Ġcry st
Ġc a
Ġb r
Ġb ird
Ġan other
Ġa m
ĠM is
ĠH e
um ent
um b
ra d
pr ess
om in
oin t
o ol
ly ;
ity ;
ic ul
ial ly
i ol
g ed
enc y
ar ge
an e
a ff
Ġwh ite
Ġus ually
Ġt e
Ġs ur
Ġs aid
Ġm eas
Ġm ar
Ġl im
Ġl and
Ġin v
Ġin str
Ġh ave
Ġf ir
Ġe ff
Ġd es
Ġd ec
Ġcon d
Ġa ff
ĠY e
ĠS c
ĠO r
ĠL i
ĠC alled
ĠB l
ĠAm eric
Ġ x
yl l
w ard
ot t
ot h
og en
l ess
ia .
i ar
et er
en ;
em ent
ec h
ation ,
at iv
as m
anc e.
am p
am b
- w
Ġw hen
Ġup on
Ġs er
Ġplant s
Ġo ver
Ġman y
Ġkn ow
Ġinstr ument
Ġh or
Ġh igh
Ġh as
Ġcon t
Ġco ver
ĠJ ac
ĠI s
ĠH a
ĠC o
ĠC ap
y r
ure .
ur al
th ;
re t
out h
om e
o x
o f
li ke
ith er
is ion
is hed
in e.
ic t
ia ,
f ect
et t
et her
d e
as h
ar p
al m
Ġwith out
Ġv ery
Ġto g
Ġtog ether
Ġsometim es
Ġsom e
Ġse ver
Ġs il
Ġp ower
Ġor igin
Ġof ,
Ġmin eral
Ġli k
Ġgen er
Ġg ro
Ġg o
Ġesp .
Ġconsist ing
Ġc our
Ġb on
Ġb as
Ġar t
ĠUn d
ĠUn c
ĠT ur
ĠS h
ĠQu in
ĠQu ar
ĠP oly
ĠN e
ĠIn ter
ĠI ll
ĠH om
ĠG r
ĠEu rop
ĠA s
Ġ 1
z o
un n
ub l
tr act
qu al
p s
ong ing
ness ;
le g
is k
in e,
il d
ic .
he s
es ter
er b
el .
ar s
ab l
a f
Ġwh it
Ġw e
Ġv ess
Ġv al
Ġsever al
Ġs y
Ġs alt
Ġoff ic
Ġn o
Ġn am
Ġm ean
Ġm ain
Ġir on
Ġhe m
Ġg reat
Ġg iv
Ġfir st
Ġf r
Ġcond ition
Ġcom b
Ġb ark
Ġat t
ĠV ol
ĠO p
ĠHy dro
ĠE m
ĠB r
ĠB e
v ert
us .
ud e
ud d
ro ad
ov e
o ch
n ow
l d
iv er
iv ely
ir t
ip t
ing ly
in .
if orm
ib ut
h at
g er
es ent
es e
er r
ence ;
ect ed
ec l
e el
c ul
c our
at t
ar r
ance ;
ag e.
able .
ab it
Ġvess el
Ġup per
Ġth ree
Ġt em
Ġs he
Ġro und
Ġpur pos
Ġp os
Ġor der
Ġnat ive
Ġn um
Ġm us
Ġli qu
Ġl arge
Ġinclud ing
Ġin t
Ġim m
Ġfl ower
Ġf re
Ġesp ec
Ġespec ially
Ġe y
Ġcryst all
Ġcontain ing
Ġb us
Ġb rown
Ġb ec
Ġb ack
Ġar m
Ġap pl
Ġan g
Ġab out
ĠY ellow
ĠX iph
ĠTh at
ĠQu ack
ĠK in
ĠJ ug
ĠIn v
ĠG u
ĠC om
ĠA r
Ġ id
Ġ 2
v e
un g
un ct
r ipt
ph al
or th
ograph ic
o e
it er
ist ic
in ate
in ,
il ity
if erous
i od
i ef
he l
f us
ent ly
em at
el f
ee p
ater n
at her
ap p
ant .
an y
al .
- s
- f
Ġz inc
Ġx yl
Ġw ord
Ġv ol
Ġtr ib
Ġth ose
Ġt urn
Ġt en
Ġsup port
Ġsom eth
Ġse ed
Ġs w
Ġs l
Ġs erv
Ġpl ace
Ġp h
Ġp ass
Ġop en
Ġon ly
Ġof ten
Ġof ;
Ġmann er;
Ġm ore
Ġle g
Ġl ower
Ġl itt
Ġl arg
Ġhy dro
Ġg re
Ġg ood
Ġf ig
Ġf am
Ġdra w
Ġdis eas
Ġd er
Ġder iv
Ġcomb in
Ġc ent
Ġbod y
Ġbl ack
Ġapp ear
Ġan c
ĠZ eal
ĠW ant
ĠS ub
ĠQu e
ĠP h
ĠP ar
ĠO s
ĠI d
ĠF r
ĠE mb
ĠCap able
ĠB ra
ĠA d
Ġ est
Ġ ent
up t
um ,
ul iar
u e;
u e.
st it
r ong
r im
on y
o .
ness .
ment .
le ,
l ast
iv es
ion s,
in th
in n
in ct
il t
il .
iet y
id ;
i ot
i or
i ant
g en
ers ;
er ly
en g
el p
ec uliar
e et
c op
c ern
c arb
at or
as ter
ar n
al ;
- t
Ġwor k
Ġw ant
Ġun f
Ġth ro
Ġte eth
Ġt end
Ġt ake
Ġse par
Ġs ol
Ġproduc ed
Ġpr iv
Ġp eculiar
Ġop posed
Ġn ow
Ġn ame
Ġm ind
Ġlitt le
Ġle av
Ġl ow
Ġin c
Ġg row
Ġg ra
Ġg l
Ġfam ily
Ġex c
Ġen g
Ġe ar
Ġd ire
Ġd if
Ġd ev
Ġd ef
Ġc ur
Ġc he
Ġbel onging
Ġb ring
Ġanc ient
ĠY aw
ĠX en
ĠV it
ĠV i
ĠS w
ĠR em
ĠM ar
ĠLi ke
ĠG al
ĠF or
ĠEn t
ĠD es
ĠC al
ĠAmeric an
Ġ( C
us tr
us ,
um in
ul ph
u or
re g
r upt
pr is
pr esent
ound ing
os p
or ial
op od
on e.
o os
o ,
m en
li ed
le as
l or
l es
iz ation
is ter
ir con
in ed
ill ar
ig g
if e
ic ate
ic ,
ib le.
i ograph
i k
i .
f ter
et .
es h
er d
em in
e p
ce ed
c cur
b on
ay s
ate ;
at ur
ap or
am ent
a z
a ph
a im
- c
) .
Ġwith ,
Ġth ing
Ġt ree
Ġsub ject
Ġspec if
Ġspecif ically
Ġs uit
Ġs im
Ġs ens
Ġra d
Ġr est
Ġper form
Ġp ut
Ġp ar
Ġo d
Ġnat ure
Ġm uch
Ġm on
Ġm aking
Ġm ag
Ġl o
Ġl in
Ġl ight
Ġj ud
Ġim per
Ġfrom ,
Ġflower s.
Ġf ull
Ġf ree
Ġex p
Ġe v
Ġe le
Ġe as
Ġdiv ision
Ġdire ct
Ġd esc
Ġd el
Ġcrystall ine
Ġcon s
Ġcomp ound
Ġc ap
Ġc al
Ġbus iness
Ġbe ar
Ġb ranch
Ġappl ied
Ġal lied
Ġacid .
ĠW ork
ĠW ood
ĠW ith
ĠW est
ĠUn s
ĠU mb
ĠS om
ĠR h
ĠR ed
ĠQuar ter
ĠQu est
ĠP l
ĠO m
ĠN eg
ĠM on
ĠL e
ĠJ un
ĠJ e
ĠIn s
ĠIm m
ĠEng l
ĠEngl ish
ĠD ef
ĠC or
v is
ur d
ur ch
uc c
u ed
str uct
s er
ran c
ra ft
r ant
pos ition
p in
ous e
ous ;
ot ter
oph ag
olog y
od ont
od e
o ul
o u
o ke
lect ro
iz ing
iv alv
it e.
it ;
it .
ist r
ion s
ies c
i ac
h a
g ar
ew hat
et ;
end er
en er
el ;
ee k
ed g
eb r
ccur ring
c ord
c end
b r
b le
ating ,
ater ial
ated ;
ast ing
ast e
ard .
ar ch
ar a
an ge
al k
ain .
ail ed
act ion
abl eness
- m
Ġz eal
Ġy ear
Ġwor ship
Ġw rong
Ġw oman
Ġw ill
Ġvar ious
Ġvar iety
Ġv iol
Ġun it
Ġthe y
Ġt rad
Ġt it
Ġspecifically ,
Ġshe ll
Ġsh r
Ġshr ub
Ġsh ort
Ġser ies
Ġs ix
Ġre pro
Ġr ac
Ġpro f
Ġpr act
Ġpart ic
Ġp ubl
Ġp rom
Ġp oint
Ġp o
Ġp leas
Ġp i
Ġpi ec
Ġnum ber
Ġmeas ur
Ġm ov
Ġm od
Ġm il
Ġm idd
Ġm ed
Ġm atter
Ġliqu id
Ġle t
Ġj oin
Ġim p
Ġhor se
Ġh and
Ġgiv en
Ġfr uit
Ġfour th
Ġf urn
Ġf ac
Ġe m
Ġe ither
Ġdo ub
Ġdes ign
Ġd ut
Ġd est
Ġd ark
Ġch ief
Ġca use
Ġb uff
Ġb re
Ġb or
Ġb en
Ġa ir
Ġa fter
ĠZo anth
ĠZ e
ĠZ ant
ĠZ am
ĠY ach
ĠYach t
ĠV ent
ĠUn ited
ĠS k
ĠS e
ĠR es
ĠQu ad
ĠM es
ĠI r
ĠF ull
ĠF ore
ĠEng land
ĠD o
ĠD ec
Ġ( A
ver .
v ir
um m
ul ate
s on
ro ught
ro k
re l
r as
ph th
or ed
on ic
on e,
olog y.
o ugh
o ic
o ce
oce phal
ne x
n al
m ing
m ed
med iate
j ur
ium .
itt ing
it ude
it ive
it ation
ism .
is ed
is c
ir g
ir c
in ous
in al
im ent
il ,
ial .
i w
i e
i ag
g y
el y.
el v
el op
e y
e x
che s
ch ing
ber ry
b o
ation al
at ure
at es.
ar c
ar .
ar ,
an a
am ine
ak es
a ut
a e,
Ġwho le
Ġwh ose
Ġw av
Ġval u
Ġv ers
Ġus e
Ġup ;
Ġto ;
Ġtim e;
Ġthro ugh
Ġthe m
Ġthe ir
Ġth is
Ġt ro
Ġt ick
Ġt erm
Ġsur f
Ġsometh ing
Ġsk ill
Ġs uc
Ġs id
Ġs et
Ġs and
Ġs ame
Ġreg ard
Ġre p
Ġre ad
Ġqual ities
Ġqu adr
Ġproduc ing
Ġpre c
Ġpr inc
Ġpl an
Ġpl ac
Ġp ot
Ġp oss
Ġp oly
Ġp et
Ġp ast
Ġo ccurring
Ġne g
Ġmet al
Ġmean s
Ġle af
Ġl ess
Ġl ay
Ġl ast
Ġknow led
Ġin h
Ġhe av
Ġh old
Ġgro up
Ġg old
Ġg ive
Ġform ed
Ġfor t
Ġf ood
Ġext ens
Ġex tract
Ġex cess
Ġeff ect
Ġe ver
Ġe ach
Ġdo ct
Ġdist ing
Ġdisting u
Ġdif fer
Ġdesc ript
Ġd en
Ġcon struct
Ġcon n
Ġcon form
Ġcomp an
Ġca us
Ġc ell
Ġad v
ĠZ on
ĠZ ircon
ĠZ en
ĠY ester
ĠY ear
ĠY a
ĠV ag
ĠUn b
ĠThe y
ĠT or
ĠSt ro
ĠS y
ĠS up
ĠS outh
ĠR et
ĠR ec
ĠR ad
ĠQu ick
ĠP ur
ĠP r
ĠM ag
ĠL o
ĠL ith
ĠL ab
ĠK ne
ĠK l
ĠJ ap
ĠInd ian
ĠIm p
ĠHy d
ĠH ind
ĠH el
ĠH eb
ĠGl ad
ĠG n
ĠG e
ĠG all
ĠF re
ĠE p
ĠE l
ĠD ev
ĠD et
ĠCon c
ĠC re
ĠBra z
ĠB ed
Ġ umb
y t
y ram
y p
us )
un e
ul ating
u v
th .
t on
s w
s ome
ry -
ron ch
rom et
re m
re ason
ram m
r iss
r ine
r esp
r al
qu e
p ath
ous .
ot .
os cop
or ous
on or
om en
o y
o ff
o -
l es.
k in
iz z
it ute
it ro
it ory
it ion;
it ,
iss ion
ish .
ious ;
in ch
in ary
in a
im s
il ian
il i
ific ation
if t
ies ,
ical ;
ic ial
ic ating
ib ility
i os
her e
he m
g o
g ment
f ish
erv ing
erv e
er ite
enn ial
enc e.
en ch
el y;
e em
d uct
d o
cord ing
com p
co unt
cl us
c hed
c an
ay ;
ated .
ate ,
at ory
at es
as s.
ang u
an s
am ic
al oid
al f
ag ed
ack ed
ac ar
able ,
a uc
- b
Ġz o
Ġyellow ish
Ġwh at
Ġw ere
Ġun s
Ġtrans l
Ġth an
Ġtem per
Ġt ur
Ġt iss
Ġt ast
Ġt ail
Ġsy st
Ġsyst em
Ġsup er
Ġsuc cess
Ġstr ong
Ġstr ip
Ġst ran
Ġst ra
Ġst ill
Ġsp ir
Ġse a
Ġs ulph
Ġs uch
Ġs ound
Ġs ing
Ġro ot
Ġresembling ,
Ġrem ov
Ġrel ation
Ġrel ating
Ġre present
Ġre c
Ġr esp
Ġr en
Ġpubl ic
Ġprop ert
Ġprod uct
Ġpro ceed
Ġprinc ip
Ġpre v
Ġpre f
Ġpref ix
Ġpl ural
Ġper iod
Ġpart s
Ġp ort
Ġp ict
Ġp alm
Ġob ject
Ġo x
Ġo per
Ġnat ural
Ġn ut
Ġmet am
Ġmet all
Ġmetall ic
Ġmann er
Ġmag n
Ġmagn es
Ġm ot
Ġm or
Ġm ix
Ġm er
Ġm aterial
Ġm ark
Ġm akes
Ġlong ,
Ġlik e.
Ġlet ter
Ġle ad
Ġl ive
Ġl aw
Ġinter mediate
Ġinh abit
Ġincl os
Ġin fer
Ġin ,
Ġhe l
Ġh o
Ġh erb
Ġh ard
Ġh alf
Ġh air
Ġgre en
Ġgr ass
Ġgen eral
Ġg od
Ġg all
Ġfre qu
Ġform erly
Ġfl at
Ġfig ure
Ġfe et
Ġf oot
Ġf oll
Ġf ast
Ġextract ed
Ġex press
Ġetc. ;
Ġele ment
Ġe p
Ġe mb
Ġdoub le
Ġdistingu ished
Ġdist inct
Ġdis cour
Ġdiffer ent
Ġderiv ed
Ġd eal
Ġcor resp
Ġcorresp ond
Ġcon f
Ġcharacter ized
Ġcharacter istic
Ġch ild
Ġc ut
Ġc rown
Ġc ast
Ġbrown ish
Ġbl ue
Ġbl ood
Ġbec om
Ġas s
Ġany th
Ġanother ;
Ġan t
Ġal k
Ġad m
Ġab ove
ĠZam ind
ĠYe z
ĠY oke
ĠY ield
ĠY es
ĠY elp
ĠWh it
ĠV ic
ĠV apor
ĠV a
ĠUn w
ĠUn con
ĠU p
ĠTur b
ĠT ub
ĠT rans
ĠT here
ĠT er
ĠS ol
ĠS o
ĠRe g
ĠR el
ĠPro t
ĠP ers
ĠP er
ĠOut b
ĠOf ,
ĠO ste
ĠN o
ĠN ew
ĠN ec
ĠM ed
ĠL ong
ĠJ oh
ĠJoh n
ĠJ ing
ĠJ ew
ĠJ ess
ĠJ ack
ĠJ a
ĠIn f
ĠH igh
ĠG em
ĠF e
ĠF ar
ĠDis pl
ĠD ra
ĠCon sist
ĠConsist ing
ĠBl ack
ĠB esp
ĠB en
ĠB eg
ĠAb ounding
ĠA t
ĠA ar
Ġ2 .
Ġ( M
Ġ ur
Ġ er
z ing
yl en
y st
ven ient
uth or
ut ion
ure ,
ur r
unt ar
unct ion
un ce
um f
um an
um ;
ter ed
st ant
s elv
ros al
ring e
rav el
ra y
ra b
r is
qu it
per m
our nal
os is
or ship
or rupt
oph yll
oon .
on s
on der
on ,
omin al
om y
ogen es
ogenes is
og n
og .
ock .
ocephal a
ment ;
m ast
lo y
le y
l ord
l im
l er
k .
iz er
iz a
iv e;
iv al
ity ,
it ter
it s
it able
ist ing
ist .
is tern
is f
irg in
ious .
in ominal
in ar
in ;
ill a
il ar
if y
if ier
ies t
id .
ic ation
ian g
ian .
i i
hel m
he t
ha ul
h ib
f .
ert in
ert eb
erm in
erm an
er at
ent .
end ing
enc y;
el s
ecl us
ec t.
ear s
e pt
e in
cur s
com pl
com m
ch iev
c in
c er
br id
at ch
at .
arm on
and r
am per
all ing
al og
ak a
ain t
ag og
ack le
ac y
ab ric
ab ly
a ft
a )
0 0
) ;
Ġy ield
Ġwrit ten
Ġwor n
Ġwhit e,
Ġwe ight
Ġwater ;
Ġw orm
Ġw ool
Ġw as
Ġv is
Ġv e
Ġtrib e
Ġtrans par
Ġtogether ;
Ġto o
Ġth row
Ġt um
Ġtum or
Ġt reat
Ġt ent
Ġt ak
Ġtak en
Ġsy m
Ġsurf ac
Ġstran g
Ġst ir
Ġsp read
Ġsp ace
Ġsom ewhat
Ġso ft
Ġsim ilar
Ġsid es
Ġse gment
Ġse ason
Ġsc i
Ġs un
Ġs ide
Ġs al
Ġro ck
Ġro ad
Ġrel ated
Ġred d
Ġredd ish
Ġre fer
Ġre f
Ġre ck
Ġre ce
Ġre ason
Ġrac em
Ġr it
Ġr ight
Ġr ender
Ġqu est
Ġqu art
Ġprop ri
Ġpropri et
Ġproceed ing
Ġpro per
Ġpro ject
Ġpriv ile
Ġprivile ge
Ġpower ,
Ġposs ess
Ġpl ay
Ġpartic ular
Ġp yram
Ġp ow
Ġp oin
Ġp ip
Ġp ig
Ġp hen
Ġp en
Ġp at
Ġout ;
Ġone 's
Ġoffic e,
Ġob t
Ġo m
Ġne w
Ġne ar
Ġn itro
Ġn ec
Ġn .
Ġmetam eric
Ġmeas ure
Ġm ult
Ġm ost
Ġm o
Ġm em
Ġm ay
Ġlarg e,
Ġl if
Ġl av
Ġl ab
Ġknowled ge
Ġkn ob
Ġk ept
Ġit .
Ġinv ol
Ġinter est
Ġins ect
Ġin fl
Ġimper fect
Ġid ent
Ġhydro carb
Ġhor s
Ġhigh er
Ġhem p
Ġhel p
Ġh app
Ġh ad
Ġh abit
Ġgrow ing
Ġgener ally
Ġg ame
Ġfrequ ently
Ġform ing
Ġfor e
Ġfl ow
Ġfl o
Ġfig ur
Ġfast en
Ġf oss
Ġf ish
Ġf ire
Ġf in
Ġf ill
Ġf at
Ġext rem
Ġex clus
Ġex act
Ġever y
Ġetc. ,
Ġesp. ,
Ġeas ily
Ġe ven
Ġe qual
Ġe ight
Ġdist r
Ġdis s
Ġdec e
Ġde p
Ġd one
Ġd et
Ġcryst al
Ġconsist s
Ġconn ect
Ġcon stit
Ġcombin ing
Ġcol lect
Ġco un
Ġco in
Ġcl os
Ġcl ass
Ġch urch
Ġcent ur
Ġcentur y,
Ġcar bon
Ġc row
Ġc op
Ġc le
Ġc irc
Ġc att
Ġc art
Ġby ,
Ġbird .
Ġbe y
Ġbey ond
Ġbe h
Ġbe et
Ġbe en
Ġb u
Ġb road
Ġb ed
Ġatt end
Ġappear ance
Ġan n
Ġal ong
Ġaff ect
Ġad d
ĠZ oc
ĠZ er
ĠYear n
ĠY ean
ĠXyl ograph
ĠXiph istern
ĠWh isk
ĠW oman
ĠW ind
ĠW il
ĠW e
ĠV ot
ĠV is
ĠV ill
ĠV est
ĠV es
ĠUn k
ĠU l
ĠTur k
ĠT ri
ĠT en
ĠT e
ĠS l
ĠRe form
ĠR ub
ĠR om
ĠR est
ĠR at
ĠQuest ion
ĠQu ilt
ĠQu iesc
ĠQu idd
ĠQu een
ĠQu ak
ĠP rop
ĠP et
ĠOver r
ĠOm n
ĠNe u
ĠN od
ĠN igg
ĠN iag
ĠNiag ara
ĠM ut
ĠM ill
ĠM et
ĠL or
ĠL ig
ĠL angu
ĠL a
ĠKne el
ĠKl ip
ĠK ing
ĠK ind
ĠK eel
ĠK ee
ĠK eck
ĠK al
ĠJac ob
ĠJ ud
ĠIt s
ĠIn st
ĠIn n
ĠIn con
ĠId i
ĠHeb rew
ĠHa em
ĠH ol
ĠH and
ĠH al
ĠG ro
ĠG ood
ĠG o
ĠG erman
ĠG er
ĠG en
ĠFl or
ĠEx t
ĠEurop ean
ĠEurop e
ĠE v
ĠE lectro
ĠD en
ĠCon tr
ĠC ro
ĠC ath
ĠCath ol
ĠC an
ĠB y
ĠB ec
ĠB ac
ĠAl so
ĠAb s
ĠA ff
ĠA f
ĠAf ric
Ġ1 st
Ġ( T
Ġ( L
Ġ ed
Ġ 6
z ed
z e
yl ic
y -
w ork
w and
ver ed
v el
ut a
us t.
us s
us h
ure ;
up on
um .
uct u
uc ing
uc id
u le
u ine
th ing
t ;
sh ank
selv es
se ud
s m
ry ;
rop od
rom atic
ro g
ri ev
ri er
reg n
re e,
ran ce
ra p
ra ge
r est
r es
r ate
pr ing
ple v
pl or
pl ay
phth alm
p ox
p or
p at
ow ed
os m
os ity
os a
op p
op oly
op ed
ont ane
on ing
on ical
on ian
om eter
om ;
og am
od iac
oc al
o unc
o qu
n ;
mb ol
m ost
m eal
ly ,
li er
let e
le w
l ong
l ine
ke let
k et
iv orous
iv il
iv e.
ium ,
it im
it e,
it amine
it al
ist ,
ism uth
is on
is ;
ir m
ir ing
ion al
ing s
in t
im at
il oqu
il ;
ight ed
ight ;
ig est
if f
id i
id e.
icul ate
icul a
ict or
ic ell
ic e.
ib ul
ib er
ib b
ian ce
i qu
i ating
i able
hed ron
he s.
he e
he art
h ol
g u
g romet
g ling
g iv
eth yl
ess ent
erv ed
ern el
ent ,
eng th
end ed
en ograph
en ist
em or
em ad
ell ed
el ess
el as
ebr ach
ear ing
e am
c y
b y
ay ,
ation s.
at isf
at in
at ,
ast ropod
ass e
asm ine
as c
ar row
ar e.
ant e
ant al
and er
anc y
alv an
ally ,
ain ;
ag e;
ad y
ac t.
ac qu
ac ious
ab ility
a y.
a is
a ;
a ),
H 3
- pos
- h
- ey
- d
Ġxyl en
Ġwor ld
Ġwh ere
Ġw onder
Ġw ind
Ġw in
Ġw id
Ġvol can
Ġvessel ,
Ġvalu able
Ġv ul
Ġv ot
Ġv i
Ġv erb
Ġv apor
Ġv alv
Ġunder st
Ġun ion
Ġun con
Ġumb ell
Ġtranspar ent
Ġtr uth
Ġtogether ,
Ġtim ber
Ġtick et
Ġth read
Ġten ant
Ġteeth .
Ġt ub
Ġt or
Ġt est
Ġsubstance ,
Ġsubst ance.
Ġstr uct
Ġst up
Ġst one
Ġst it
Ġst em
Ġst eal
Ġspecies .
Ġsp ot
Ġsp ort
Ġsp in
Ġsp ect
Ġsmall ,
Ġsm oot
Ġsmoot h
Ġskill ed
Ġsil ver
Ġsh ip
Ġsh arp
Ġseed s
Ġsci ence
Ġsc rew
Ġs yll
Ġs umm
Ġs old
Ġs n
Ġs ett
Ġs ec
Ġs ch
Ġs ac
Ġresp ect
Ġres id
Ġres erv
Ġrepro duct
Ġrepresent ed
Ġren unc
Ġrem ain
Ġrel ig
Ġref lect
Ġrec ogn
Ġre ver
Ġre ven
Ġre t
Ġre qu
Ġre pe
Ġra il
Ġr ub
Ġr id
Ġr ed.
Ġr ank
Ġqu ick
Ġpurpos e,
Ġprop ort
Ġprom in
Ġprof ess
Ġpro t
Ġpre t
Ġpr iest
Ġpr es
Ġpow der
Ġpo ison
Ġplant s.
Ġpl ate
Ġpiec e
Ġph ys
Ġpart y
Ġp ed
Ġp e
Ġpe op
Ġp ath
Ġp ap
Ġp air
Ġout er
Ġorgan ism
Ġor th
Ġor d
Ġop in
Ġoff ice
Ġof .
Ġod or
Ġobt use
Ġob s
Ġo th
Ġo ste
Ġo ld
Ġo il
Ġnum erous
Ġnitro gen
Ġnam ed
Ġnam e.
Ġn. ,
Ġn umb
Ġn eck
Ġmus cl
Ġmind ;
Ġmidd le
Ġmem ber
Ġmeasur ing
Ġmatter ;
Ġmar ri
Ġm one
Ġliqu or
Ġlim est
Ġlik e,
Ġleav es
Ġlay er
Ġland lord
Ġl iv
Ġliv ing
Ġl ine
Ġl ater
Ġl ar
Ġlar v
Ġk ne
Ġk ing
Ġk eep
Ġjud icial
Ġj ust
Ġj ournal
Ġj oint
Ġj aw
Ġis s
Ġint ro
Ġins p
Ġinhabit ant
Ġinclud es
Ġin n
Ġin jur
Ġin fus
Ġhy brid
Ġheav y
Ġhead .
Ġh ouse
Ġh orn
Ġh om
Ġh ol
Ġh er
Ġgro und
Ġgra y
Ġgener a,
Ġg um
Ġg u
Ġg rav
Ġg ig
Ġg ar
Ġfurn ished
Ġfoss il
Ġfor est
Ġfl uor
Ġfl esh
Ġfe ather
Ġf rag
Ġf ix
Ġf ive
Ġf ing
Ġf ield
Ġf er
Ġf ee
Ġf av
Ġf arm
Ġf ar
Ġexcess ;
Ġex ceed
Ġev id
Ġest eem
Ġespecially ,
Ġeng rav
Ġend ;
Ġe lectro
Ġdra in
Ġdoct rine
Ġdistr ibut
Ġdist ance
Ġdiseas e
Ġdest itute
Ġdesign ating,
Ġdescript ive
Ġdes ire
Ġd y
Ġd ry
Ġd ress
Ġd im
Ġd i
Ġd eck
Ġcover ed
Ġcour s
Ġcont in
Ġcon vert
Ġcon ve
Ġconve y
Ġcon tr
Ġcon cern
Ġcon c
Ġcommon ly
Ġcom pos
Ġcom e
Ġcolor .
Ġcl oth
Ġchief ly
Ġch lor
Ġch ange
Ġc ust
Ġcust om
Ġc ult
Ġcult iv
Ġc r
Ġc ow
Ġc ost
Ġc as
Ġbr ight
Ġbon es
Ġbon e;
Ġbod ies
Ġbo ast
Ġben ef
Ġbel ow
Ġbel iev
Ġbeh av
Ġbec a
Ġbeca use
Ġbear ing
Ġbe g
Ġbe aut
Ġb ro
Ġb ran
Ġb ra
Ġb oth
Ġb itter
Ġb err
Ġb ene
Ġbene ath
Ġb ar
Ġb all
Ġart ific
Ġar tic
Ġapp end
Ġap par
Ġap art
Ġanyth ing;
Ġam ong
Ġam o
Ġalk aloid
Ġal co
Ġalco hol
Ġair .
Ġaff air
Ġad her
Ġact ion
Ġacid ,
Ġac qu
Ġac cording
Ġac cept
Ġab s
Ġa v
Ġa uthor
Ġa romatic
ĠZo ogam
ĠZo oc
ĠZen ith
ĠZeal ot
ĠZe ug
ĠZeug l
ĠZ ig
ĠZ em
ĠZ ech
ĠZ any
ĠYez d
ĠYezd eg
ĠYezdeg erd
ĠYes tern
ĠYaw l
ĠYacht s
ĠY ok
ĠY arr
ĠY ap
ĠY am
ĠY ak
ĠY ac
ĠXyl ophag
ĠXyl op
ĠXen od
ĠXenod och
ĠXanth op
ĠWork ing
ĠWh at
ĠW el
ĠVi enn
ĠV irgin
ĠV in
ĠV il
ĠV ictor
ĠV erteb
ĠV e
ĠV as
ĠV al
ĠUnd ers
ĠUn tr
ĠUn m
ĠUn f
ĠUn -
ĠU r
ĠU ph
ĠTurk ish
ĠT ro
ĠT it
ĠT et
ĠT ending
ĠT el
ĠT art
ĠSup er
ĠSp art
ĠSom ewhat
ĠSe ver
ĠSc itamine
ĠS tr
ĠS is
ĠS em
ĠS ch
ĠRom ish
ĠRes embling
ĠRel ating
ĠR ound
ĠR oman
ĠR en
ĠQuadr up
ĠQuad ri
ĠQu iet
ĠQu atern
ĠQu as
ĠPur b
ĠPurb eck
ĠPro s
ĠPro f
ĠP ter
ĠPter opod
ĠP re
ĠP ost
ĠP en
ĠP av
ĠP ass
ĠOver s
ĠOs s
ĠO vert
ĠNec ess
ĠN or
ĠN om
ĠN it
ĠN ight
ĠN as
ĠN a
ĠM or
ĠM ic
ĠMic ro
ĠM arm
ĠM ade
ĠL ess
ĠL eng
ĠL eg
ĠL av
ĠL ap
ĠL act
ĠK e
ĠK am
ĠJa unt
ĠJ u
ĠJ oint
ĠJ ant
ĠJ ag
ĠIs ra
ĠInd ies.
ĠInd ia
ĠIn cl
ĠIll ustr
ĠHyd r
ĠHind oos
ĠHigh -
ĠHe ad
ĠHead -
ĠHa emat
ĠH ur
ĠH oll
